node {
  name: "global_step/Initializer/zeros"
  op: "Const"
  attr {
    key: "_class"
    value {
      list {
        s: "loc:@global_step"
      }
    }
  }
  attr {
    key: "_output_shapes"
    value {
      list {
        shape {
        }
      }
    }
  }
  attr {
    key: "dtype"
    value {
      type: DT_INT64
    }
  }
  attr {
    key: "value"
    value {
      tensor {
        dtype: DT_INT64
        tensor_shape {
        }
        int64_val: 0
      }
    }
  }
}
node {
  name: "global_step"
  op: "VarHandleOp"
  attr {
    key: "_class"
    value {
      list {
        s: "loc:@global_step"
      }
    }
  }
  attr {
    key: "_output_shapes"
    value {
      list {
        shape {
        }
      }
    }
  }
  attr {
    key: "container"
    value {
      s: ""
    }
  }
  attr {
    key: "dtype"
    value {
      type: DT_INT64
    }
  }
  attr {
    key: "shape"
    value {
      shape {
      }
    }
  }
  attr {
    key: "shared_name"
    value {
      s: "global_step"
    }
  }
}
node {
  name: "global_step/IsInitialized/VarIsInitializedOp"
  op: "VarIsInitializedOp"
  input: "global_step"
  attr {
    key: "_output_shapes"
    value {
      list {
        shape {
        }
      }
    }
  }
}
node {
  name: "global_step/Assign"
  op: "AssignVariableOp"
  input: "global_step"
  input: "global_step/Initializer/zeros"
  attr {
    key: "_class"
    value {
      list {
        s: "loc:@global_step"
      }
    }
  }
  attr {
    key: "dtype"
    value {
      type: DT_INT64
    }
  }
}
node {
  name: "global_step/Read/ReadVariableOp"
  op: "ReadVariableOp"
  input: "global_step"
  attr {
    key: "_class"
    value {
      list {
        s: "loc:@global_step"
      }
    }
  }
  attr {
    key: "_output_shapes"
    value {
      list {
        shape {
        }
      }
    }
  }
  attr {
    key: "dtype"
    value {
      type: DT_INT64
    }
  }
}
node {
  name: "global_step/VarIsInitializedOp"
  op: "VarIsInitializedOp"
  input: "global_step"
  attr {
    key: "_output_shapes"
    value {
      list {
        shape {
        }
      }
    }
  }
}
node {
  name: "global_step/cond/Switch"
  op: "Switch"
  input: "global_step/VarIsInitializedOp"
  input: "global_step/VarIsInitializedOp"
  attr {
    key: "T"
    value {
      type: DT_BOOL
    }
  }
  attr {
    key: "_output_shapes"
    value {
      list {
        shape {
        }
        shape {
        }
      }
    }
  }
}
node {
  name: "global_step/cond/switch_t"
  op: "Identity"
  input: "global_step/cond/Switch:1"
  attr {
    key: "T"
    value {
      type: DT_BOOL
    }
  }
  attr {
    key: "_output_shapes"
    value {
      list {
        shape {
        }
      }
    }
  }
}
node {
  name: "global_step/cond/switch_f"
  op: "Identity"
  input: "global_step/cond/Switch"
  attr {
    key: "T"
    value {
      type: DT_BOOL
    }
  }
  attr {
    key: "_output_shapes"
    value {
      list {
        shape {
        }
      }
    }
  }
}
node {
  name: "global_step/cond/pred_id"
  op: "Identity"
  input: "global_step/VarIsInitializedOp"
  attr {
    key: "T"
    value {
      type: DT_BOOL
    }
  }
  attr {
    key: "_output_shapes"
    value {
      list {
        shape {
        }
      }
    }
  }
}
node {
  name: "global_step/cond/Read/ReadVariableOp"
  op: "ReadVariableOp"
  input: "global_step/cond/Read/ReadVariableOp/Switch:1"
  attr {
    key: "_output_shapes"
    value {
      list {
        shape {
        }
      }
    }
  }
  attr {
    key: "dtype"
    value {
      type: DT_INT64
    }
  }
}
node {
  name: "global_step/cond/Read/ReadVariableOp/Switch"
  op: "Switch"
  input: "global_step"
  input: "global_step/cond/pred_id"
  attr {
    key: "T"
    value {
      type: DT_RESOURCE
    }
  }
  attr {
    key: "_class"
    value {
      list {
        s: "loc:@global_step"
      }
    }
  }
  attr {
    key: "_output_shapes"
    value {
      list {
        shape {
        }
        shape {
        }
      }
    }
  }
}
node {
  name: "global_step/cond/Identity"
  op: "Identity"
  input: "global_step/cond/Read/ReadVariableOp"
  attr {
    key: "T"
    value {
      type: DT_INT64
    }
  }
  attr {
    key: "_output_shapes"
    value {
      list {
        shape {
        }
      }
    }
  }
}
node {
  name: "global_step/cond/Switch_1"
  op: "Switch"
  input: "global_step/Initializer/zeros"
  input: "global_step/cond/pred_id"
  attr {
    key: "T"
    value {
      type: DT_INT64
    }
  }
  attr {
    key: "_class"
    value {
      list {
        s: "loc:@global_step"
      }
    }
  }
  attr {
    key: "_output_shapes"
    value {
      list {
        shape {
        }
        shape {
        }
      }
    }
  }
}
node {
  name: "global_step/cond/Merge"
  op: "Merge"
  input: "global_step/cond/Switch_1"
  input: "global_step/cond/Identity"
  attr {
    key: "N"
    value {
      i: 2
    }
  }
  attr {
    key: "T"
    value {
      type: DT_INT64
    }
  }
  attr {
    key: "_output_shapes"
    value {
      list {
        shape {
        }
        shape {
        }
      }
    }
  }
}
node {
  name: "global_step/add/y"
  op: "Const"
  attr {
    key: "_output_shapes"
    value {
      list {
        shape {
        }
      }
    }
  }
  attr {
    key: "dtype"
    value {
      type: DT_INT64
    }
  }
  attr {
    key: "value"
    value {
      tensor {
        dtype: DT_INT64
        tensor_shape {
        }
        int64_val: 0
      }
    }
  }
}
node {
  name: "global_step/add"
  op: "Add"
  input: "global_step/cond/Merge"
  input: "global_step/add/y"
  attr {
    key: "T"
    value {
      type: DT_INT64
    }
  }
  attr {
    key: "_output_shapes"
    value {
      list {
        shape {
        }
      }
    }
  }
}
node {
  name: "tensors/component_0"
  op: "Const"
  device: "/device:CPU:0"
  attr {
    key: "_output_shapes"
    value {
      list {
        shape {
          dim {
            size: 712
          }
        }
      }
    }
  }
  attr {
    key: "dtype"
    value {
      type: DT_DOUBLE
    }
  }
  attr {
    key: "value"
    value {
      tensor {
        dtype: DT_DOUBLE
        tensor_shape {
          dim {
            size: 712
          }
        }
        tensor_content: "\000\000\000\000\000\000\370\177\000\000\000\000\000\000\370\177\000\000\000\000\000\000\370\177\000\000\000\000\000\0002@\000\000\000\000\000\000?@\000\000\000\000\000\0005@\000\000\000\000\000\000:@\000\000\000\000\000\000\370\177\000\000\000\000\000\000\370\177\000\000\000\000\000\000?@\000\000\000\000\000\000L@\000\000\000\000\000\0005@\000\000\000\000\000\000\370\177\000\000\000\000\000\000L@\000\000\000\000\000\0005@\000\000\000\000\000\200@@\000\000\000\000\000\0005@\000\000\000\000\000\000\370\177\000\000\000\000\000\200E@\000\000\000\000\000\000\370\177\000\000\000\000\000\000>@\000\000\000\000\000\000@@\000\000\000\000\000\000\370\177\000\000\000\000\000\0003@\000\000\000\000\000\0008@\000\000\000\000\000\200F@\000\000\000\000\000\0007@\000\000\000\000\000\000E@\000\000\000\000\000\200C@\000\000\000\000\000\0000@\000\000\000\000\000\000\370\177\000\000\000\000\000\200P@\000\000\000\000\000\000<@\000\000\000\000\000\200I@\000\000\000\000\000\200G@\000\000\000\000\000\0002@\000\000\000\000\000\000B@\000\000\000\000\000\000>@\000\000\000\000\000\0006@\000\000\000\000\000\000\370\177\000\000\000\000\000\0009@\000\000\000\000\000\000\370\177\000\000\000\000\000\000@@\000\000\000\000\000\000\370\177\000\000\000\000\000\0003@\000\000\000\000\000\000J@\000\000\000\000\000\300Q@\000\000\000\000\000\000@@\000\000\000\000\000\0003@\000\000\000\000\000\000\370\177\000\000\000\000\000\0006@\000\000\000\000\000\000I@\000\000\000\000\000\000\020@\000\000\000\000\000\000B@\000\000\000\000\000\0003@\000\000\000\000\000\000>@\000\000\000\000\000\000\370\177\000\000\000\000\000\000>@\000\000\000\000\000\0005@\000\000\000\000\000\000>@\000\000\000\000\000\0002@\000\000\000\000\000\0003@\000\000\000\000\000\000C@\000\000\000\000\000\000$@\000\000\000\000\000\000\370\177\000\000\000\000\000\000=@\000\000\000\000\000\000\370\177\000\000\000\000\000\000<@\000\000\000\000\000\200C@\000\000\000\000\000\000\000@\000\000\000\000\000\000>@\000\000\000\000\000\0009@\000\000\000\000\000\000,@\000\000\000\000\000\200A@\000\000\000\000\000\0001@\000\000\000\000\000\000\370\177\000\000\000\000\000\0002@\000\000\000\000\000\0007@\000\000\000\000\000\000I@\000\000\000\000\000\0005@\000\000\000\000\000\000M@\000\000\000\000\000\000\010@\000\000\000\000\000\000*@\000\000\000\000\000\200L@\000\000\000\000\000\0000@\000\000\000\000\000\000\370\177\000\000\000\000\000\000N@\000\000\000\000\000\0006@\000\000\000\000\000\000>@\000\000\000\000\000\0001@\000\000\000\000\000\0009@\000\000\000\000\000\000;@\000\000\000\000\000\000B@\000\000\000\000\000\000\370\177\000\000\000\000\000\000\370\177\000\000\000\000\000\000=@\000\000\000\000\000\000>@\000\000\000\000\000\000\370\177\000\000\000\000\000\200I@\000\000\000\000\000\0000@\000\000\000\000\000\000\370\177\000\000\000\000\000\000\360?\000\000\000\000\000\0006@\000\000\000\000\000\000\370\177\000\000\000\000\000\000\034@\000\000\000\000\000\000\370\177\000\000\000\000\000\000\370\177\000\000\000\000\000\200@@\000\000\000\000\000\000\034@\000\000\000\000\000\000@@\000\000\000\000\000\000I@\000\000\000\000\000\200M@\000\000\000\000\000\000<@\000\000\000\000\000\000\370\177\000\000\000\000\000\000N@\000\000\000\000\000\0001@\000\000\000\000\000@@@\000\000\000\000\000\0005@\000\000\000\000\000\000\010@\000\000\000\000\000\0003@\000\000\000\000\000\0008@\000\000\000\000\000\0002@\000\000\000\000\000\200H@\000\000\000\000\000\200D@\000\000\000\000\000\000>@\000\000\000\000\000\200M@\000\000\000\000\000\000\020@\000\000\000\000\000\000\370\177\000\000\000\000\000\200I@\000\000\000\000\000\200F@\000\000\000\000\000\0002@\000\000\000\000\000\000\370\177\000\000\000\000\000\000\370\177\000\000\000\000\000\000<@\000\000\000\000\000\300K@\000\000\000\000\000\0008@\000\000\000\000\000\000\370\177\000\000\000\000\000\000\370\177\000\000\000\000\000\000\370\177\000\000\000\000\000\000\370\177\000\000\000\000\000\000=@\000\000\000\000\000\000M@\000\000\000\000\000\000:@\000\000\000\000\000\000F@\000\000\000\000\000\000\370\177\000\000\000\000\000\000@@\000\000\000\000\000\000:@\000\000\000\000\000\0000@\000\000\000\000\000\0003@\000\000\000\000\000\000\370\177\000\000\000\000\000\000H@\000\000\000\000\000\000\370\177\000\000\000\000\000\000\"@\000\000\000\000\000\200A@\000\000\000\000\000\000(@\000\000\000\000\000\000?@\000\000\000\000\000\000;@\000\000\000\000\000\200E@\000\000\000\000\000\200>@\000\000\000\000\000\000A@\000\000\000\000\000\000\370\177\000\000\000\000\000\0007@\000\000\000\000\000\0008@\000\000\000\000\000\200C@\000\000\000\000\000\0008@\000\000\000\000\000\000\370\177\000\000\000\000\000\000\350?\000\000\000\000\000\000A@\000\000\000\000\000\0007@\000\000\000\000\000\000E@\000\000\000\000\000\000\370\177\000\000\000\000\000\0006@\217\302\365(\\\217\352?\000\000\000\000\000\000\370\177\000\000\000\000\000\000J@\000\000\000\000\000\0001@\000\000\000\000\000\200H@\000\000\000\000\000\000F@\000\000\000\000\000\000\030@\000\000\000\000\000\000P@\000\000\000\000\000\0002@\000\000\000\000\000\0003@\000\000\000\000\000\000:@\000\000\000\000\000\200E@\000\000\000\000\000\000\370\177\000\000\000\000\000\0007@\000\000\000\000\000\0000@\000\000\000\000\000\000B@\000\000\000\000\000\0006@\000\000\000\000\000\0003@\000\000\000\000\000\000\370\177\000\000\000\000\000\200G@\000\000\000\000\000\000D@\000\000\000\000\000\0004@\000\000\000\000\000\000B@\000\000\000\000\000\0002@\000\000\000\000\000\0002@\000\000\000\000\000\000@@\000\000\000\000\000\200@@\000\000\000\000\000\200A@\000\000\000\000\000\000P@\000\000\000\000\000\000J@\000\000\000\000\000\0008@\000\000\000\000\000\200N@\000\000\000\000\000\0008@\000\000\000\000\000\200E@\000\000\000\000\000\000A@\000\000\000\000\000\200O@\000\000\000\000\000\0008@\000\000\000\000\000\000C@\000\000\000\000\000\0005@\000\000\000\000\000\200F@\000\000\000\000\000\0000@\000\000\000\000\000\0004@\000\000\000\000\000\000\370\177\000\000\000\000\000\200D@\000\000\000\000\000\000>@\000\000\000\000\000\000=@\000\000\000\000\000\000\010@\000\000\000\000\000\000\010@\000\000\000\000\000\000K@\000\000\000\000\000\000<@\000\000\000\000\000\000B@\000\000\000\000\000\000H@\000\000\000\000\000\000?@\000\000\000\000\000\000:@\000\000\000\000\000\000\370\177\341z\024\256G\341\332?\000\000\000\000\000\0009@\000\000\000\000\000\000\370\177\000\000\000\000\000\000C@\000\000\000\000\000\000\370\177\000\000\000\000\000\000\370\177\000\000\000\000\000\000.@\000\000\000\000\000\200A@\000\000\000\000\000\000\370\177\000\000\000\000\000\0008@\000\000\000\000\000\000B@\000\000\000\000\000\0006@\000\000\000\000\000\000I@\000\000\000\000\000\000\370\177\000\000\000\000\000\300F@\000\000\000\000\000\200@@\000\000\000\000\000\0003@\000\000\000\000\000\0002@\000\000\000\000\000\0000@\000\000\000\000\000\000\370\177\000\000\000\000\000\000\370\177\000\000\000\000\000\000H@\000\000\000\000\000\0006@\000\000\000\000\000\000=@\000\000\000\000\000\000\370\177\000\000\000\000\000\000C@\000\000\000\000\000\000F@\000\000\000\000\000\000\010@\000\000\000\000\000\0002@\000\000\000\000\000\0002@\000\000\000\000\000\000\370\177\000\000\000\000\000\000\000@\000\000\000\000\000\200A@\000\000\000\000\000\200R@\000\000\000\000\000\000?@\000\000\000\000\000\200<@\000\000\000\000\000\000L@\000\000\000\000\000\000:@\000\000\000\000\000\000@@\000\000\000\000\000\000\370\177\000\000\000\000\000\000D@\000\000\000\000\000\000;@\000\000\000\000\000\000\370\177\000\000\000\000\000\000C@\000\000\000\000\000\000\360?\000\000\000\000\000\000\370\177\000\000\000\000\000\000\370\177q=\n\327\243p\345?\000\000\000\000\000\000\370\177\000\000\000\000\000\000\000@\000\000\000\000\000\0002@\000\000\000\000\000\200I@\000\000\000\000\000\000=@\000\000\000\000\000\200H@\000\000\000\000\000\0008@\000\000\000\000\000\000?@\000\000\000\000\000\200F@\000\000\000\000\000\000@@\000\000\000\000\000\0002@\000\000\000\000\000\000F@\000\000\000\000\000\200G@\000\000\000\000\000@B@\000\000\000\000\000\000>@\000\000\000\000\000\000;@\000\000\000\000\000\000=@\000\000\000\000\000\300Q@\000\000\000\000\000\000J@\000\000\000\000\000\200E@\000\000\000\000\000\0006@\000\000\000\000\000\000\370\177\000\000\000\000\000\000\370\177\000\000\000\000\000\000:@\000\000\000\000\000\0009@\000\000\000\000\000\000\370\177\000\000\000\000\000\000?@\000\000\000\000\000\200F@\000\000\000\000\000\0006@\000\000\000\000\000\200H@\000\000\000\000\000\0006@\000\000\000\000\000\000\020@\000\000\000\000\000\000=@\000\000\000\000\000\000A@\000\000\000\000\000\000H@\000\000\000\000\000\000;@\000\000\000\000\000\000K@\000\000\000\000\000\000\370\177\000\000\000\000\000\0003@\000\000\000\000\000\0006@\000\000\000\000\000\300F@\000\000\000\000\000\000\370\177\000\000\000\000\000\0007@\000\000\000\000\000\000>@\000\000\000\000\000\000\370\177\000\000\000\000\000\000A@\000\000\000\000\000\000?@\000\000\000\000\000\000\370\177\000\000\000\000\000\000D@\000\000\000\000\000\000\370\177\000\000\000\000\000\000@@\000\000\000\000\000\0004@\000\000\000\000\000\000;@\000\000\000\000\000@@@\000\000\000\000\000\000F@\000\000\000\000\000\0007@\000\000\000\000\000\000A@\000\000\000\000\000\000@@\000\000\000\000\000\000\020@\000\000\000\000\000\000\000@\000\000\000\000\000\000\370\177\000\000\000\000\000\0009@\000\000\000\000\000\0008@\000\000\000\000\000\0005@\000\000\000\000\000\000?@\000\000\000\000\000\000K@\000\000\000\000\000\200@@\000\000\000\000\000\0007@\000\000\000\000\000\0003@\000\000\000\000\000@P@\000\000\000\000\000\000\370\177\000\000\000\000\000\000E@\000\000\000\000\000\0002@\000\000\000\000\000\000;@\000\000\000\000\000\000K@\000\000\000\000\000\000\370\177\000\000\000\000\000\200G@\000\000\000\000\000\000&@\000\000\000\000\000\0005@\000\000\000\000\000\000=@\000\000\000\000\000\200C@\000\000\000\000\000\200C@\000\000\000\000\000\000B@\000\000\000\000\000\0001@\000\000\000\000\000\000\370\177\000\000\000\000\000\000&@\000\000\000\000\000\200G@\000\000\000\000\000\000\370\177\000\000\000\000\000\000C@\000\000\000\000\000\000\370\177\000\000\000\000\000\0003@\000\000\000\000\000\000H@\000\000\000\000\000\000\370\177\000\000\000\000\000\000\370\177\000\000\000\000\000\000D@\000\000\000\000\000\000?@\000\000\000\000\000\000 @\000\000\000\000\000\000:@\000\000\000\000\000\0008@\000\000\000\000\000\0006@\000\000\000\000\000\000\020@\000\000\000\000\000\200F@\000\000\000\000\000\000E@\000\000\000\000\000\000@@\000\000\000\000\000\200I@\000\000\000\000\000\000-@\000\000\000\000\000\000\370\177\000\000\000\000\000\000;@\000\000\000\000\000\000\370\177\000\000\000\000\000\000 @\000\000\000\000\000\000E@\000\000\000\000\000\000D@\000\000\000\000\000\000\024@\000\000\000\000\000\000>@\000\000\000\000\000\000\370\177\000\000\000\000\000\000\020@\217\302\365(\\\217\352?\000\000\000\000\000\000<@\000\000\000\000\000\0004@\000\000\000\000\000\000\370\177\000\000\000\000\000\000\370\177\000\000\000\000\000\0001@\000\000\000\000\000\000\370\177\000\000\000\000\000\000=@\000\000\000\000\000\200A@\000\000\000\000\000\000\030@\000\000\000\000\000\0003@\000\000\000\000\000\0005@\000\000\000\000\000\0004@\000\000\000\000\000\000\034@\000\000\000\000\000\200C@\000\000\000\000\000\000:@\000\000\000\000\000\200F@\000\000\000\000\000\200@@\000\000\000\000\000\000\000@\000\000\000\000\000\000\370\177\000\000\000\000\000\000:@\000\000\000\000\000\000@@\000\000\000\000\000\200A@\000\000\000\000\000\000<@\000\000\000\000\000\200C@\000\000\000\000\000\000<@\000\000\000\000\000\200B@\000\000\000\000\000\000\370\177\000\000\000\000\000\000\020@\000\000\000\000\000\0007@\000\000\000\000\000\000C@\000\000\000\000\000\0009@\000\000\000\000\000\000=@\000\000\000\000\000\000K@\000\000\000\000\000\0008@\000\000\000\000\000\000<@\000\000\000\000\000\000\370\177\000\000\000\000\000\000,@\000\000\000\000\000\200D@\000\000\000\000\000\000\370\177\000\000\000\000\000\000I@\000\000\000\000\000\000\370\177\000\000\000\000\000\0005@\000\000\000\000\000\0006@\000\000\000\000\000\0008@\000\000\000\000\000\0005@\000\000\000\000\000\200I@\000\000\000\000\000\0008@\000\000\000\000\000\0003@\000\000\000\000\000\0006@\000\000\000\000\000\200N@\000\000\000\000\000\000\370\177\000\000\000\000\000\0003@\000\000\000\000\000\000\370\177\000\000\000\000\000\0006@\000\000\000\000\000\000<@\000\000\000\000\000\000K@\000\000\000\000\000\200D@\000\000\000\000\000\200<@\000\000\000\000\000\000\370\177\000\000\000\000\000\0005@\000\000\000\000\000\000D@\000\000\000\000\000\000B@\000\000\000\000\000\000=@\000\000\000\000\000\000.@\000\000\000\000\000@D@\000\000\000\000\000\000=@\000\000\000\000\000\200@@\000\000\000\000\000\0003@\000\000\000\000\000\200A@\000\000\000\000\000\0002@\000\000\000\000\000\0002@\000\000\000\000\000\000\370\177\000\000\000\000\000\000\370\177\000\000\000\000\000\000\370\177\000\000\000\000\000\0005@\000\000\000\000\000\000\370\177\000\000\000\000\000\200C@\000\000\000\000\000\0004@\000\000\000\000\000\000M@\000\000\000\000\000\200H@\000\000\000\000\000\000\024@\000\000\000\000\000\200C@\000\000\000\000\000\0001@\000\000\000\000\000@P@\000\000\000\000\000\000\370\177\000\000\000\000\000\000\370\177\000\000\000\000\000\0005@\000\000\000\000\000\000?@\000\000\000\000\000\000@@\000\000\000\000\000\200C@\000\000\000\000\000\0004@\000\000\000\000\000\000A@\000\000\000\000\000\200G@\000\000\000\000\000\000B@\000\000\000\000\000\0005@\000\000\000\000\000\000\370\177\000\000\000\000\000\000\370\177\000\000\000\000\000\000>@\000\000\000\000\000\000\370\177\000\000\000\000\000\000\370\177\000\000\000\000\000\200@@\000\000\000\000\000\000>@\000\000\000\000\000\000\360?\000\000\000\000\000\0004@\000\000\000\000\000\000A@\000\000\000\000\000\200F@\000\000\000\000\000\000B@\000\000\000\000\000\200C@\000\000\000\000\000\0004@\000\000\000\000\000@A@\000\000\000\000\000\000<@\000\000\000\000\000\000\370\177\000\000\000\000\000\000\370\177\000\000\000\000\000\000$@\000\000\000\000\000\000\"@\000\000\000\000\000\000\370\177\000\000\000\000\000\2004@\000\000\000\000\000\000\370\177\000\000\000\000\000\000B@\000\000\000\000\000\000\370\177\000\000\000\000\000\000\370\177\000\000\000\000\000\0004@\000\000\000\000\000\0006@\000\000\000\000\000\200C@\000\000\000\000\000\200B@\000\000\000\000\000\000H@\000\000\000\000\000\0007@\000\000\000\000\000\000\370\177\000\000\000\000\000\200Q@\000\000\000\000\000\000@@\000\000\000\000\000\0000@\000\000\000\000\000\0005@\000\000\000\000\000\000\370\177\000\000\000\000\000\000E@\000\000\000\000\000\0008@\000\000\000\000\000\0006@\000\000\000\000\000\000D@q=\n\327\243p\355?\000\000\000\000\000\200@@\000\000\000\000\000\0002@\000\000\000\000\000\000<@\000\000\000\000\000\200B@\000\000\000\000\000\000\024@\000\000\000\000\000\000*@\000\000\000\000\000\000;@\000\000\000\000\000\000C@\000\000\000\000\000\000E@\000\000\000\000\000\000\010@\000\000\000\000\000\000<@\000\000\000\000\000\000I@\000\000\000\000\000\200I@\000\000\000\000\000\000\370\177\000\000\000\000\000\000:@\000\000\000\000\000\000\370\177\000\000\000\000\000\0008@\000\000\000\000\000\000E@\000\000\000\000\000\000E@\000\000\000\000\000\000\370\177\000\000\000\000\000\000B@\000\000\000\000\000\0003@\000\000\000\000\000\000\370\177\000\000\000\000\000@P@\000\000\000\000\000\000.@\000\000\000\000\000\000\370\177\000\000\000\000\000\000G@\000\000\000\000\000\000<@\000\000\000\000\000\000I@\000\000\000\000\000\0003@\000\000\000\000\000\000\370\177\000\000\000\000\000\0009@\000\000\000\000\000\000O@\000\000\000\000\000\000;@\000\000\000\000\000\200A@\000\000\000\000\000\000\370\177\000\000\000\000\000\000E@\000\000\000\000\000\000\370\177\000\000\000\000\000\000\370\177\000\000\000\000\000\0008@\000\000\000\000\000\0008@\000\000\000\000\000\000\020@\000\000\000\000\000\000<@\000\000\000\000\000\0002@\000\000\000\000\000\000;@\000\000\000\000\000\000\370\177\000\000\000\000\000\000,@\000\000\000\000\000\000<@\000\000\000\000\000\0006@\000\000\000\000\000\200B@\000\000\000\000\000\200G@\000\000\000\000\000\000\370\177\000\000\000\000\000\000<@\000\000\000\000\000\000B@\000\000\000\000\000\0004@\000\000\000\000\000\200K@\000\000\000\000\000\000\370\177\000\000\000\000\000\0006@\000\000\000\000\000\200L@\000\000\000\000\000\000=@\000\000\000\000\000\000:@\000\000\000\000\000\000\370\177\000\000\000\000\000\200C@\000\000\000\000\000\000@@\000\000\000\000\000\000>@\000\000\000\000\000\000C@\000\000\000\000\000\000\370\177\000\000\000\000\000\0002@\000\000\000\000\000\0008@\000\000\000\000\000\000\020@\000\000\000\000\000\0006@\000\000\000\000\000\000\370\177\000\000\000\000\000\0007@\000\000\000\000\000\0002@\000\000\000\000\000\000\370\177\000\000\000\000\000\200@@\000\000\000\000\000\000 @\000\000\000\000\000\0006@\000\000\000\000\000\000B@\000\000\000\000\000\0009@\000\000\000\000\000\0003@\000\000\000\000\000\000\370\177\000\000\000\000\000\000B@\000\000\000\000\000\0007@\000\000\000\000\000\000=@\000\000\000\000\000\000\360?\000\000\000\000\000\200A@\000\000\000\000\000\000=@\000\000\000\000\000\000F@\000\000\000\000\000\000B@\000\000\000\000\000\000\370\177\000\000\000\000\000\000\370\177\000\000\000\000\000\0005@\000\000\000\000\000\0000@\000\000\000\000\000\000\030@\000\000\000\000\000\000@@\000\000\000\000\000\000C@\000\000\000\000\000\000:@\000\000\000\000\000\000K@\000\000\000\000\000\000\370\177\000\000\000\000\000\000D@\000\000\000\000\000\000E@\000\000\000\000\000\000<@\000\000\000\000\000\200A@\000\000\000\000\000\0002@\000\000\000\000\000\0002@\000\000\000\000\000\000\"@\000\000\000\000\000\000B@\000\000\000\000\000\000\000@\000\000\000\000\000\0009@\000\000\000\000\000\000K@\000\000\000\000\000\000\"@\000\000\000\000\000\000T@\000\000\000\000\000\000D@\000\000\000\000\000\200D@\000\000\000\000\000\0008@\000\000\000\000\000\0006@\000\000\000\000\000\0001@\000\000\000\000\000\200F@\000\000\000\000\000\0004@\000\000\000\000\000\000J@\000\000\000\000\000\200A@\000\000\000\000\000\000>@\000\000\000\000\000\000\370\177\000\000\000\000\000\000C@\000\000\000\000\000\000\370\177\000\000\000\000\000\200C@\000\000\000\000\000\000?@\000\000\000\000\000\0006@\000\000\000\000\000\0004@\000\000\000\000\000\0006@\000\000\000\000\000\000:@\000\000\000\000\000\000.@\000\000\000\000\000\000@@\000\000\000\000\000\000>@\000\000\000\000\000\000A@\000\000\000\000\000\000\370\177\000\000\000\000\000\000\360?\000\000\000\000\000\000<@\000\000\000\000\000\000>@\000\000\000\000\000\0006@\000\000\000\000\000\0005@\000\000\000\000\000\000B@\000\000\000\000\000\000D@\000\000\000\000\000\000\360?\000\000\000\000\000\000D@\000\000\000\000\000\000<@\000\000\000\000\000\000D@\000\000\000\000\000\000\370\177\000\000\000\000\000\000;@\000\000\000\000\000\0008@\000\000\000\000\000\000\024@\000\000\000\000\000\000A@\000\000\000\000\000\0007@\000\000\000\000\000\240Q@\000\000\000\000\000\0001@\000\000\000\000\000\0000@\000\000\000\000\000\0003@\000\000\000\000\000\0009@\000\000\000\000\000\0009@\000\000\000\000\000\000E@\000\000\000\000\000\0005@\000\000\000\000\000\000\370\177\000\000\000\000\000\000\370\177\000\000\000\000\000\000.@\000\000\000\000\000\200F@\000\000\000\000\000\000\370\177\000\000\000\000\000\0009@\000\000\000\000\000\200@@\000\000\000\000\000\000<@\000\000\000\000\000\000@@\000\000\000\000\000\000:@\000\000\000\000\000\200B@\000\000\000\000\000\000I@\000\000\000\000\000\000I@\000\000\000\000\000\000\370\177\000\000\000\000\000\000A@\000\000\000\000\000\000\370\177\000\000\000\000\000\200A@\000\000\000\000\000\000H@\000\000\000\000\000\200G@\000\000\000\000\000\000\370\177"
      }
    }
  }
}
node {
  name: "tensors/component_1"
  op: "Const"
  device: "/device:CPU:0"
  attr {
    key: "_output_shapes"
    value {
      list {
        shape {
          dim {
            size: 712
          }
        }
      }
    }
  }
  attr {
    key: "dtype"
    value {
      type: DT_DOUBLE
    }
  }
  attr {
    key: "value"
    value {
      tensor {
        dtype: DT_DOUBLE
        tensor_shape {
          dim {
            size: 712
          }
        }
        tensor_content: "\254\255\330_v?L@\000\000\000\000\000\000\000\000b\241\3264\357\270k@33333\263\"@\000\000\000\000\000@:@\256\266b\177\331\335 @\254\255\330_v?L@\315\314\314\314\314pl@\000\000\000\000\000\000\037@\000\000\000\000\000\0002@\000\000\000\000\000\300A@fffff\246#@33333cQ@\315\314\314\314\314\214:@333333\037@\000\000\000\000\000\200V@\220\240\3701\346\356\036@\000\000\000\000\000\000\035@\315\314\314\314\314\314\031@\017\013\265\246yw9@\232\231\231\231\231\0310@\221\017z6\253\022S@\315\314\314\314\314\314S@\000\000\000\000\000\000%@\367\006_\230L\225\037@\000\000\000\000\000\000+@\367\006_\230L\225\037@\036\026jM\363\316 @<\275R\226!\312T@\232\231\231\231\231\031 @\367\006_\230L\225\037@\000\000\000\000\000\000%@\315\314\314\314\314\214:@\315\314\314\314\314\014)@\000\000\000\000\000\000.@\232\231\231\231\231\031 @\000\000\000\000\000\000*@\000\000\000\000\000\000*@\000\000\000\000\000\000=@\000\000\000\000\000\000\037@\000\000\000\000\000\000*@\t\371\240g\263\352\034@\000\000\000\000\000\000*@\232\231\231\231\231\031\037@\t\371\240g\263j\037@\000\000\000\000\000\200>@\210\205Z\323\274SA@33333\263\037@\232\231\231\231\231\231\036@\000\000\000\000\000\000/@\315\314\314\314\314\254#@33333\363K@fffff\346;@\000\000\000\000\000\000^@\315\314\314\314\314\214J@\000\000\000\000\000\000?@\254\255\330_v?L@\000\000\000\000\000\000\035@\232\231\231\231\231\031 @\000\000\000\000\000\0008@\000\000\000\000\000\0007@\000\000\000\000\000\000\000\000\315\314\314\314\314pl@fffff\346;@\000\000\000\000\000\000\000\000\315\314\314\314\314\354$@\000\000\000\000\000@\035@33333\263/@fffffF?@\315\314\314\314\314\354$@\000\000\000\000\000\000%@fffff\346\034@\000\000\000\000\000\330C@\000\000\000\000\000\000J@\243#\271\374\207\270[@fffff\346\036@\000\000\000\000\000\000\033@333333\036@\232\231\231\231\231\031 @\000\000\000\000\000fp@8\370\302d\252Pb@\356\353\3009#\312D@\000\000\000\000\000\2003@33333\263(@\000\000\000\000\000\000:@\000\000\000\000\000\000\037@\000\000\000\000\000\200C@\321\221\\\376C\364`@\000\000\000\000\000\000*@33333S!@\367\006_\230L\225\037@33333S!@\000\000\000\000\000\000\000\000\232\231\231\231\231\031 @\t\371\240g\263\352\034@HP\374\030s\367\"@33333\233Z@\232\231\231\231\231\031 @TR\'\240\211\260N@\220\240\3701\346\356\036@\000\000\000\000\000\000\037@\353\3426\032\300{/@\220\240\3701\346.\037@$(~\214\271[6@\000\000\000\000\000 =@\000\000\000\000\000\200>@\000\000\000\000\000\000\037@\315\314\314\314\314\214J@\000\000\000\000\000\330C@\000\000\000\000\000\000\037@\000\000\000\000\000\000*@\000\000\000\000\000\000+@\t\212\037c\356\212T@\232\231\231\231\231\031 @\315\314\314\314\314\214:@{\203/L\246\352,@\212\216\344\362\037\022>@o\360\205\311T}S@33333c?@\000\000\000\000\000\000%@\000\000\000\000\000\3002@\232\231\231\231\231\351S@vq\033\r\340\3559@fffff64@\000\000\000\000\000\000#@\000\000\000\000\000\000\035@\205|\320\263Y\325*@\256\266b\177\331}.@\000\000\000\000\000\000\037@\000\000\000\000\000@:@fffff64@33333cQ@\000\000\000\000\000\000/@\000\000\000\000\000\200@@\232\231\231\231\231\031 @8\370\302d\252\360n@\000\000\000\000\000\000\000\000\232\231\231\231\231\0310@33333s7@33333cQ@\000\000\000\000\000\000:@\315\314\314\314\314.c@33333\263\037@!\037\364lV\375L@fffff\346\034@\232\231\231\231\231\271 @\000\000\000\000\000\000%@\232\231\231\231\231\031 @\232\231\231\231\231\031\037@\367\006_\230L\225\037@\t\371\240g\263j\037@\000\000\000\000\000\000\037@33333sG@fffff\336T@\353\3426\032\300{&@\t\371\240g\263j\037@HP\374\030s\267+@\315\314\314\314\314jj@\000\000\000\000\000\000\037@\232\231\231\231\231\031 @\000\000\000\000\000\000\000\000\000\000\000\000\000\000*@33333\2630@\000\000\000\000\000\000:@\000\000\000\000\000\000*@p_\007\316\031Q\037@\212\216\344\362\037B3@\000\000\000\000\000\000*@33333s\"@\000\000\000\000\000\000:@{\203/L\246\352 @\232\231\231\231\231\031 @\000\000\000\000\000\000=@333333\036@\000\000\000\000\000\000+@\326\305m4\2007\034@\221\017z6\253FV@33333\263\037@33333\363(@\000\000\000\000\000\000:@\232\231\231\231\231\031\037@\000\000\000\000\000\000-@33333\2234@\000\000\000\000\000@:@fffff&8@33333\263\037@\000\000\000\000\000\330C@\000\000\000\000\000\300Q@\000\000\000\000\000\200K@\367\006_\230L\225\037@\243\222:\001M\204\037@\000\000\000\000\000\000\"@\000\000\000\000\000\200/@fffff\246#@\000\000\000\000\000\000:@\t\371\240g\263j\037@\000\000\000\000\000\000\'@\254\255\330_v?L@\367\006_\230L\225\037@\315\314\314\314\314\214:@\000\000\000\000\000pp@\232\231\231\231\231\351S@\212\216\344\362\037B3@33333\363\030@\000\000\000\000\000\000%@\232\231\231\231\231\031 @\000\000\000\000\000\000%@\315\314\314\314\314,#@33333SQ@<\275R\226!\322Q@\000\000\000\000\000\000\035@/n\243\001\274\233d@\000\000\000\000\0000A@33333\263\037@\232\231\231\231\231\031.@\000\000\000\000\000\330C@\000\000\000\000\000\000*@\232\231\231\231\231\031 @33333\0235@\000\000\000\000\000\000:@\000\000\000\000\000\000:@33333\263\037@]m\305\376\262\373\035@\315\314\314\314\314\214:@\256\266b\177\331]!@\367\006_\230L\225\037@\017\013\265\246yw9@\270\257\003\347\214\010!@\232\231\231\231\231\031\037@\000\000\000\000\000\000J@33333S!@\232\231\231\231\231\031 @\256\266b\177\331}.@\t\371\240g\263\352\034@\000\000\000\000\000\000:@\232\231\231\231\231\031\037@\315\314\314\314\314\314S@\000\000\000\000\000\020D@\232\231\231\231\231\031\037@\315\314\314\314\314\264`@\000\000\000\000\000\000\037@fffff\346\034@\232\231\231\231\231\031\037@\367\006_\230L\225\037@\000\000\000\000\000\000*@\000\000\000\000\000\000\037@\000\000\000\000\000\000>@33333\263=@\221\017z6\253.S@\367\006_\230L\225\037@\000\000\000\000\000\000>@\315\314\314\314\314\3549@\315\314\314\314\314.c@\232\231\231\231\231\031 @\000\000\000\000\000\3002@\315\314\314\314\314pl@\232\231\231\231\2319[@fffff&8@33333\0235@\277\016\2343\242\002\200@\232\231\231\231\231\031\037@\000\000\000\000\000\000*@\232\231\231\231\231\0310@\212\216\344\362\037\262>@\t\371\240g\263j\037@\t\371\240g\263j\037@\t\371\240g\263\352\034@\000\000\000\000\000\000?@\221\017z6\253.S@\000\000\000\000\000\000/@\367\006_\230L\225\037@\000\000\000\000\000\330C@\000\000\000\000\000\000\000\000\t\371\240g\263\352\036@\000\000\000\000\000\000-@\000\000\000\000\000\000/@33333\223(@\036\026jM\363\256#@o\360\205\311T}S@\361\364JY\206\270;@\000\000\000\000\000\000\000\000\000\000\000\000\000\000#@fffff\2064@\000\000\000\000\000\000\037@33333\263\037@\270\257\003\347\214\350,@\000\000\000\000\000\000:@\273\270\215\006\360FJ@\000\000\000\000\000\000:@\000\000\000\000\000\000*@\000\000\000\000\000\000%@\000\000\000\000\000\000#@TR\'\240\211\300H@\000\000\000\000\000`W@33333sG@\367\006_\230L\225\037@\000\000\000\000\000@7@\000\000\000\000\000\200K@\367\006_\230L\225\037@33333\263\037@\000\000\000\000\000\000\000\000/n\243\001\274\233d@\232\231\231\231\231\031 @\000\000\000\000\000\000\035@\221\017z6\253.S@\356\353\3009#\312D@fffff\0066@\256\266b\177\331}.@\000\000\000\000\000\000*@vq\033\r\340\3559@\000\000\000\000\000\0005@33333\263M@\232\231\231\231\231\271+@\000\000\000\000\000\000:@fffff\246P@\000\000\000\000\000\200<@\361\364JY\206\270;@\t\371\240g\263j\037@\232\231\231\231\231\031 @\t\371\240g\263\352\034@\000\000\000\000\000\0005@33333\263\037@33333cQ@fffff\346;@\000\000\000\000\000\000\037@\000\000\000\000\000\000%@33333s\"@\000\000\000\000\000pj@\000\000\000\000\000\000*@\361\364JY\206\270;@HP\374\030s\027.@\315\314\314\314\314\314,@\000\000\000\000\000\000:@\t\212\037c\356vT@fffffF?@\000\000\000\000\000\000\000\000\000\000\000\000\000\000*@\232\231\231\231\231\031 @33333S!@\000\000\000\000\000\000%@\000\000\000\000\000\000,@33333\263/@\000\000\000\000\000\000*@\000\000\000\000\000`B@\000\000\000\000\000\000\037@\017\013\265\246y\3673@\000\000\000\000\000\000*@\000\000\000\000\000\000\'@\000\000\000\000\000\000*@fffffRS@\t\371\240g\263\352\034@\000\000\000\000\000\000J@33333sG@\000\000\000\000\000`R@\000\000\000\000\000\000%@fffff&8@\000\000\000\000\000 =@\232\231\231\231\231\031/@\232\231\231\231\2319[@33333S!@fffffF?@\000\000\000\000\000\000-@\000\000\000\000\000\000:@33333c?@33333\263(@\000\000\000\000\000\000>@\315\314\314\314\314\314C@33333\363\036@8\370\302d\252Pb@\000\000\000\000\000\000\000\000\232\231\231\231\231\031\037@33333\0235@\232\231\231\231\231\3112@\000\000\000\000\000`R@\t\371\240g\263\352\034@\000\000\000\000\000\0007@\315\314\314\314\314\214:@\315\314\314\314\314pl@\000\000\000\000\000\200>@\232\231\231\231\231\031 @\270\257\003\347\214\350,@333333\034@\270\257\003\347\214\350,@\315\314\314\314\314\214:@\000\000\000\000\000 =@\000\000\000\000\000\000;@\000\000\000\000\000\320`@33333c?@\367\006_\230L\225\037@\000\000\000\000\000\000\037@\000\000\000\000\000 =@\000\000\000\000\000\3002@\000\000\000\000\000\000:@\315\314\314\314\314\014\020@fffff\346\034@\212\216\344\362\037\262>@33333S!@\315\314\314\314\314l!@\232\231\231\231\231\031\037@\000\000\000\000\000\200\034@fffffF?@\243\222:\001M\204\037@\t\371\240g\263j\037@\342\351\225\262\014\261#@\000\000\000\000\000@:@33333\263\037@\270\257\003\347\214\350,@\270\257\003\347\214\350,@fffff\2064@\000\000\000\000\000\000:@\221\017z6\253FV@\232\231\231\231\231\0310@\254\255\330_v?L@\321\221\\\376C\364`@\315\314\314\314\314\314,@fffffF?@\000\000\000\000\000\000#@33333\263=@\000\000\000\000\000\000\035@fffffF?@\022\024?\306\334\255O@333333\034@333333\034@\000\000\000\000\000\000%@fffff\356I@\000\000\000\000\000\000-@\367\006_\230L\225\037@$(~\214\271[6@\t\371\240g\263j\037@\000\000\000\000\000\2003@\000\000\000\000\000\000-@\000\000\000\000\000\000%@\t\371\240g\263\352\034@\232\231\231\231\231\031\037@\000\000\000\000\000\300H@]m\305\376\262\373\035@\000\000\000\000\000\000%@\326\305m4\2007\034@\000\000\000\000\000\000;@\000\000\000\000\000\000*@\232\231\231\231\231\031 @\000\000\000\000\000\300@@\232\231\231\231\231\031 @HP\374\030sW$@\232\231\231\231\231\031 @\000\000\000\000\000\000\037@fffff\2066@\000\000\000\000\000\0007@\000\000\000\000\000\200\034@\t\371\240g\263\352\034@\367\006_\230L\225\037@\000\000\000\000\000\000\'@\000\000\000\000\000\200C@\000\000\000\000\000\000%@\000\000\000\000\000\000:@\270\257\003\347\214\350,@\000\000\000\000\000\000\037@\000\000\000\000\000\000\037@\000\000\000\000\000\000:@\232\231\231\231\231\031 @\000\000\000\000\000\000%@\000\000\000\000\000fp@\315\314\314\314\314\3141@333333E@\220\240\3701\346\356\036@\232\231\231\231\231\031 @fffffRS@p_\007\316\031Q\037@\243#\271\374\207\270[@\t\371\240g\263j\037@33333\263=@\273\270\215\006\360vL@\212\216\344\362\037B3@\232\231\231\231\231\351S@33333S!@!\037\364lV\375N@\315\314\314\314\314\264`@\243#\271\374\207\270[@\232\231\231\231\231\031 @\254\255\330_v?I@33333\263\037@\000\000\000\000\000\000*@\232\231\231\231\231\031 @\000\000\000\000\000\000*@fffff\2269@\232\231\231\231\231I:@\232\231\231\231\231\0310@\232\231\231\231\231\031 @\367\006_\230L\225\037@33333S!@\367\006_\230L\225\037@fffff\346\034@\036\026jM\363N!@\273\270\215\006\360vL@\000\000\000\000\000\200C@33333S!@\000\000\000\000\000@@@\000\000\000\000\000\300A@\000\000\000\000\000\000*@33333\263\037@\353\3426\032\300{/@\000\000\000\000\000\300\031@\000\000\000\000\000\000#@\000\000\000\000\000@7@\232\231\231\231\231\031 @fffff&8@\256\266b\177\331}.@\367\006_\230L\225\037@\000\000\000\000\000\000\035@\000\000\000\000\000\000J@\321\221\\\376C\364`@\232\231\231\231\231\031 @333333\036@33333S!@\270\257\003\347\214\010%@\000\000\000\000\000\000*@\315\314\314\314\314,#@\000\000\000\000\000@P@\000\000\000\000\000\000*@33333\363\036@\000\000\000\000\000\000%@\000\000\000\000\000\000/@\000\000\000\000\000@4@\000\000\000\000\000`R@\000\000\000\000\000\000\035@\000\000\000\000\000\000*@\220\240\3701\346.\037@\000\000\000\000\000\000\037@fffff\346\034@\232\231\231\231\231\361b@33333S!@\232\231\231\231\231\031\037@\254\255\330_v?L@\000\000\000\000\000\000:@33333\363(@\t\371\240g\263\352\034@\000\000\000\000\000\000:@\000\000\000\000\000\000*@333333\036@\315\314\314\314\314\314/@\315\314\314\314\314L)@8\370\302d\252\360n@\315\314\314\314\314\214:@\t\371\240g\263\352\034@fffff\266S@\367\006_\230L\225\037@TR\'\240\211\300H@\273\270\215\006\360FJ@\232\231\231\231\231I:@\367\006_\230L\225\037@\000\000\000\000\000\300;@\361\364JY\206H:@33333cQ@\315\314\314\314\314\214:@\036\026jM\363\016 @fffff\346\034@\315\314\314\314\314\314S@\315\314\314\314\314\214G@\000\000\000\000\000\000:@\367u\340\234\021\305V@fffff&8@TR\'\240\211\270K@\000\000\000\000\000\000T@\315\314\314\314\314\214J@\000\000\000\000\000\200V@333333.@\232\231\231\231\231\231\036@\367\006_\230L\225\037@fffff\356I@333333\034@p_\007\316\031\221\034@\000\000\000\000\000\200C@\000\000\000\000\000\000*@\000\000\000\000\000`R@\025\035\311\345?D&@\315\314\314\314\314\314C@33333sG@\000\000\000\000\000\0008@33333\263\"@\273\270\215\006\360FJ@\000\000\000\000\000\000\035@\000\000\000\000\000\000-@\000\000\000\000\000\000*@fffff&8@\t\371\240g\263\352\034@\000\000\000\000\000\0000@\017\013\265\246yw9@\000\000\000\000\000\200\034@\000\000\000\000\000\000%@\220\240\3701\346.\034@33333S!@\232\231\231\231\231\031 @33333\363K@\367\006_\230L\225\037@33333\363(@\000\000\000\000\000\000T@\367\006_\230L\225\037@]m\305\376\262\373\035@\000\000\000\000\000@P@33333\2630@\000\000\000\000\000\000\035@\243\222:\001M\204\037@\000\000\000\000\000\000%@\220\240\3701\346.\037@\000\000\000\000\000\000?@\367\006_\230L\225\037@\000\000\000\000\000@:@\000\000\000\000\000\000\035@33333c:@\000\000\000\000\000\000*@\232\231\231\231\231\031 @33333s7@\000\000\000\000\000\000^@\000\000\000\000\000\000\'@33333\0235@\025\035\311\345?D&@\367\006_\230L\225\037@\000\000\000\000\000\0005@\000\000\000\000\000\000:@fffff\266S@\367\006_\230L\225\037@\315\314\314\314\314\314\033@\220\240\3701\346.\037@\000\000\000\000\000\000#@\000\000\000\000\000\200@@\232\231\231\231\231\031 @\000\000\000\000\000\000\000\000\000\000\000\000\000\000:@\367u\340\234\021\221S@\000\000\000\000\000\000I@\361\364JY\206\270;@\000\000\000\000\000\000*@\t\371\240g\263j\037@\315\314\314\314\314\214J@]m\305\376\262\373\031@\232\231\231\231\231\231 @33333c?@\367\006_\230L\225\037@fffff\346;@333333\034@\000\000\000\000\000\000:@\000\000\000\000\0000A@\000\000\000\000\000\000>@\315\314\314\314\314.c@\000\000\000\000\000\320`@\000\000\000\000\000\000:@\000\000\000\000\000\000\"@\000\000\000\000\000\200L@fffff\346;@333333\034@\367u\340\234\021\221S@333333\034@\t\371\240g\263\352\034@vq\033\r\340\2555@\000\000\000\000\000\200V@\270\257\003\347\214\350,@\000\000\000\000\000\000\000\000\232\231\231\231\231Q\\@\367\006_\230L\025\036@33333\263\037@\232\231\231\231\231\361b@\t\371\240g\263j\037@fffff\346\034@33333\263/@\000\000\000\000\000\240U@\000\000\000\000\000\0007@\000\000\000\000\000\000\037@33333\2234@\000\000\000\000\000\000+@\000\000\000\000\000`W@\000\000\000\000\000\000\035@\000\000\000\000\0000A@\000\000\000\000\000\300)@\367\006_\230L\225\037@TR\'\240\211\200B@\000\000\000\000\000\000/@\367\006_\230L\225\037@\000\000\000\000\000\000*@\220\240\3701\346\356\036@\367\006_\230L\225\037@<\275R\226!\312T@\000\000\000\000\000\300;@]m\305\376\262\373\031@\232\231\231\231\231Q\\@\000\000\000\000\000\000\037@33333\263\037@!\037\364lV\375L@\342\351\225\262\014Q @\000\000\000\000\000\000\035@\232\231\231\231\231\361b@\000\000\000\000\000\000J@33333\263\037@\367\006_\230L\225\037@\000\000\000\000\000\000\000\000\315\314\314\314\314jj@fffff\346\033@\017\013\265\246y\3673@\232\231\231\231\231\031\037@\000\000\000\000\000\000\024@\000\000\000\000\000\000*@\000\000\000\000\000`R@\000\000\000\000\000\000>@33333\263\037@fffff\266<@33333\233Z@fffffF @\000\000\000\000\000\0005@\243\222:\001M\204\037@\277\016\2343\242\002\200@\000\000\000\000\0000A@\000\000\000\000\000@C@\315\314\314\314\314\214:@"
      }
    }
  }
}
node {
  name: "tensors/component_2"
  op: "Const"
  device: "/device:CPU:0"
  attr {
    key: "_output_shapes"
    value {
      list {
        shape {
          dim {
            size: 712
          }
        }
      }
    }
  }
  attr {
    key: "dtype"
    value {
      type: DT_INT64
    }
  }
  attr {
    key: "value"
    value {
      tensor {
        dtype: DT_INT64
        tensor_shape {
          dim {
            size: 712
          }
        }
        tensor_content: "\003\000\000\000\000\000\000\000\002\000\000\000\000\000\000\000\001\000\000\000\000\000\000\000\003\000\000\000\000\000\000\000\002\000\000\000\000\000\000\000\003\000\000\000\000\000\000\000\003\000\000\000\000\000\000\000\001\000\000\000\000\000\000\000\003\000\000\000\000\000\000\000\003\000\000\000\000\000\000\000\001\000\000\000\000\000\000\000\003\000\000\000\000\000\000\000\003\000\000\000\000\000\000\000\001\000\000\000\000\000\000\000\003\000\000\000\000\000\000\000\001\000\000\000\000\000\000\000\003\000\000\000\000\000\000\000\003\000\000\000\000\000\000\000\003\000\000\000\000\000\000\000\003\000\000\000\000\000\000\000\003\000\000\000\000\000\000\000\001\000\000\000\000\000\000\000\001\000\000\000\000\000\000\000\002\000\000\000\000\000\000\000\003\000\000\000\000\000\000\000\002\000\000\000\000\000\000\000\003\000\000\000\000\000\000\000\003\000\000\000\000\000\000\000\001\000\000\000\000\000\000\000\003\000\000\000\000\000\000\000\003\000\000\000\000\000\000\000\002\000\000\000\000\000\000\000\001\000\000\000\000\000\000\000\002\000\000\000\000\000\000\000\002\000\000\000\000\000\000\000\003\000\000\000\000\000\000\000\002\000\000\000\000\000\000\000\002\000\000\000\000\000\000\000\002\000\000\000\000\000\000\000\003\000\000\000\000\000\000\000\002\000\000\000\000\000\000\000\003\000\000\000\000\000\000\000\002\000\000\000\000\000\000\000\003\000\000\000\000\000\000\000\003\000\000\000\000\000\000\000\001\000\000\000\000\000\000\000\001\000\000\000\000\000\000\000\003\000\000\000\000\000\000\000\003\000\000\000\000\000\000\000\003\000\000\000\000\000\000\000\003\000\000\000\000\000\000\000\001\000\000\000\000\000\000\000\003\000\000\000\000\000\000\000\001\000\000\000\000\000\000\000\001\000\000\000\000\000\000\000\001\000\000\000\000\000\000\000\003\000\000\000\000\000\000\000\003\000\000\000\000\000\000\000\003\000\000\000\000\000\000\000\002\000\000\000\000\000\000\000\002\000\000\000\000\000\000\000\003\000\000\000\000\000\000\000\001\000\000\000\000\000\000\000\003\000\000\000\000\000\000\000\002\000\000\000\000\000\000\000\003\000\000\000\000\000\000\000\003\000\000\000\000\000\000\000\003\000\000\000\000\000\000\000\003\000\000\000\000\000\000\000\003\000\000\000\000\000\000\000\002\000\000\000\000\000\000\000\003\000\000\000\000\000\000\000\003\000\000\000\000\000\000\000\001\000\000\000\000\000\000\000\001\000\000\000\000\000\000\000\003\000\000\000\000\000\000\000\003\000\000\000\000\000\000\000\003\000\000\000\000\000\000\000\003\000\000\000\000\000\000\000\001\000\000\000\000\000\000\000\001\000\000\000\000\000\000\000\002\000\000\000\000\000\000\000\002\000\000\000\000\000\000\000\002\000\000\000\000\000\000\000\002\000\000\000\000\000\000\000\003\000\000\000\000\000\000\000\002\000\000\000\000\000\000\000\001\000\000\000\000\000\000\000\002\000\000\000\000\000\000\000\003\000\000\000\000\000\000\000\003\000\000\000\000\000\000\000\003\000\000\000\000\000\000\000\003\000\000\000\000\000\000\000\003\000\000\000\000\000\000\000\003\000\000\000\000\000\000\000\003\000\000\000\000\000\000\000\001\000\000\000\000\000\000\000\003\000\000\000\000\000\000\000\001\000\000\000\000\000\000\000\003\000\000\000\000\000\000\000\003\000\000\000\000\000\000\000\003\000\000\000\000\000\000\000\003\000\000\000\000\000\000\000\003\000\000\000\000\000\000\000\003\000\000\000\000\000\000\000\001\000\000\000\000\000\000\000\003\000\000\000\000\000\000\000\001\000\000\000\000\000\000\000\003\000\000\000\000\000\000\000\003\000\000\000\000\000\000\000\002\000\000\000\000\000\000\000\002\000\000\000\000\000\000\000\001\000\000\000\000\000\000\000\003\000\000\000\000\000\000\000\001\000\000\000\000\000\000\000\003\000\000\000\000\000\000\000\002\000\000\000\000\000\000\000\001\000\000\000\000\000\000\000\003\000\000\000\000\000\000\000\002\000\000\000\000\000\000\000\002\000\000\000\000\000\000\000\001\000\000\000\000\000\000\000\001\000\000\000\000\000\000\000\003\000\000\000\000\000\000\000\003\000\000\000\000\000\000\000\003\000\000\000\000\000\000\000\003\000\000\000\000\000\000\000\003\000\000\000\000\000\000\000\003\000\000\000\000\000\000\000\002\000\000\000\000\000\000\000\003\000\000\000\000\000\000\000\003\000\000\000\000\000\000\000\003\000\000\000\000\000\000\000\002\000\000\000\000\000\000\000\003\000\000\000\000\000\000\000\001\000\000\000\000\000\000\000\001\000\000\000\000\000\000\000\003\000\000\000\000\000\000\000\003\000\000\000\000\000\000\000\003\000\000\000\000\000\000\000\002\000\000\000\000\000\000\000\001\000\000\000\000\000\000\000\003\000\000\000\000\000\000\000\001\000\000\000\000\000\000\000\003\000\000\000\000\000\000\000\003\000\000\000\000\000\000\000\002\000\000\000\000\000\000\000\003\000\000\000\000\000\000\000\003\000\000\000\000\000\000\000\003\000\000\000\000\000\000\000\003\000\000\000\000\000\000\000\003\000\000\000\000\000\000\000\003\000\000\000\000\000\000\000\001\000\000\000\000\000\000\000\003\000\000\000\000\000\000\000\003\000\000\000\000\000\000\000\002\000\000\000\000\000\000\000\001\000\000\000\000\000\000\000\003\000\000\000\000\000\000\000\003\000\000\000\000\000\000\000\002\000\000\000\000\000\000\000\002\000\000\000\000\000\000\000\003\000\000\000\000\000\000\000\002\000\000\000\000\000\000\000\002\000\000\000\000\000\000\000\003\000\000\000\000\000\000\000\003\000\000\000\000\000\000\000\002\000\000\000\000\000\000\000\003\000\000\000\000\000\000\000\002\000\000\000\000\000\000\000\003\000\000\000\000\000\000\000\003\000\000\000\000\000\000\000\002\000\000\000\000\000\000\000\003\000\000\000\000\000\000\000\002\000\000\000\000\000\000\000\003\000\000\000\000\000\000\000\001\000\000\000\000\000\000\000\003\000\000\000\000\000\000\000\003\000\000\000\000\000\000\000\001\000\000\000\000\000\000\000\003\000\000\000\000\000\000\000\003\000\000\000\000\000\000\000\003\000\000\000\000\000\000\000\002\000\000\000\000\000\000\000\003\000\000\000\000\000\000\000\003\000\000\000\000\000\000\000\003\000\000\000\000\000\000\000\001\000\000\000\000\000\000\000\001\000\000\000\000\000\000\000\003\000\000\000\000\000\000\000\003\000\000\000\000\000\000\000\003\000\000\000\000\000\000\000\002\000\000\000\000\000\000\000\003\000\000\000\000\000\000\000\002\000\000\000\000\000\000\000\003\000\000\000\000\000\000\000\002\000\000\000\000\000\000\000\003\000\000\000\000\000\000\000\003\000\000\000\000\000\000\000\001\000\000\000\000\000\000\000\001\000\000\000\000\000\000\000\001\000\000\000\000\000\000\000\003\000\000\000\000\000\000\000\003\000\000\000\000\000\000\000\002\000\000\000\000\000\000\000\003\000\000\000\000\000\000\000\002\000\000\000\000\000\000\000\003\000\000\000\000\000\000\000\001\000\000\000\000\000\000\000\001\000\000\000\000\000\000\000\003\000\000\000\000\000\000\000\001\000\000\000\000\000\000\000\003\000\000\000\000\000\000\000\003\000\000\000\000\000\000\000\002\000\000\000\000\000\000\000\003\000\000\000\000\000\000\000\002\000\000\000\000\000\000\000\003\000\000\000\000\000\000\000\003\000\000\000\000\000\000\000\002\000\000\000\000\000\000\000\002\000\000\000\000\000\000\000\003\000\000\000\000\000\000\000\003\000\000\000\000\000\000\000\001\000\000\000\000\000\000\000\003\000\000\000\000\000\000\000\003\000\000\000\000\000\000\000\003\000\000\000\000\000\000\000\003\000\000\000\000\000\000\000\003\000\000\000\000\000\000\000\001\000\000\000\000\000\000\000\003\000\000\000\000\000\000\000\003\000\000\000\000\000\000\000\003\000\000\000\000\000\000\000\003\000\000\000\000\000\000\000\002\000\000\000\000\000\000\000\003\000\000\000\000\000\000\000\001\000\000\000\000\000\000\000\001\000\000\000\000\000\000\000\003\000\000\000\000\000\000\000\001\000\000\000\000\000\000\000\003\000\000\000\000\000\000\000\003\000\000\000\000\000\000\000\003\000\000\000\000\000\000\000\003\000\000\000\000\000\000\000\002\000\000\000\000\000\000\000\003\000\000\000\000\000\000\000\001\000\000\000\000\000\000\000\001\000\000\000\000\000\000\000\001\000\000\000\000\000\000\000\003\000\000\000\000\000\000\000\001\000\000\000\000\000\000\000\001\000\000\000\000\000\000\000\001\000\000\000\000\000\000\000\003\000\000\000\000\000\000\000\002\000\000\000\000\000\000\000\001\000\000\000\000\000\000\000\001\000\000\000\000\000\000\000\003\000\000\000\000\000\000\000\003\000\000\000\000\000\000\000\001\000\000\000\000\000\000\000\003\000\000\000\000\000\000\000\002\000\000\000\000\000\000\000\003\000\000\000\000\000\000\000\001\000\000\000\000\000\000\000\003\000\000\000\000\000\000\000\003\000\000\000\000\000\000\000\003\000\000\000\000\000\000\000\001\000\000\000\000\000\000\000\001\000\000\000\000\000\000\000\003\000\000\000\000\000\000\000\003\000\000\000\000\000\000\000\003\000\000\000\000\000\000\000\002\000\000\000\000\000\000\000\003\000\000\000\000\000\000\000\002\000\000\000\000\000\000\000\003\000\000\000\000\000\000\000\003\000\000\000\000\000\000\000\003\000\000\000\000\000\000\000\001\000\000\000\000\000\000\000\002\000\000\000\000\000\000\000\003\000\000\000\000\000\000\000\003\000\000\000\000\000\000\000\003\000\000\000\000\000\000\000\003\000\000\000\000\000\000\000\003\000\000\000\000\000\000\000\003\000\000\000\000\000\000\000\002\000\000\000\000\000\000\000\001\000\000\000\000\000\000\000\002\000\000\000\000\000\000\000\002\000\000\000\000\000\000\000\002\000\000\000\000\000\000\000\003\000\000\000\000\000\000\000\001\000\000\000\000\000\000\000\001\000\000\000\000\000\000\000\003\000\000\000\000\000\000\000\003\000\000\000\000\000\000\000\003\000\000\000\000\000\000\000\001\000\000\000\000\000\000\000\003\000\000\000\000\000\000\000\003\000\000\000\000\000\000\000\001\000\000\000\000\000\000\000\001\000\000\000\000\000\000\000\003\000\000\000\000\000\000\000\003\000\000\000\000\000\000\000\001\000\000\000\000\000\000\000\002\000\000\000\000\000\000\000\003\000\000\000\000\000\000\000\003\000\000\000\000\000\000\000\002\000\000\000\000\000\000\000\001\000\000\000\000\000\000\000\002\000\000\000\000\000\000\000\001\000\000\000\000\000\000\000\002\000\000\000\000\000\000\000\002\000\000\000\000\000\000\000\001\000\000\000\000\000\000\000\001\000\000\000\000\000\000\000\001\000\000\000\000\000\000\000\003\000\000\000\000\000\000\000\003\000\000\000\000\000\000\000\003\000\000\000\000\000\000\000\002\000\000\000\000\000\000\000\003\000\000\000\000\000\000\000\003\000\000\000\000\000\000\000\003\000\000\000\000\000\000\000\003\000\000\000\000\000\000\000\002\000\000\000\000\000\000\000\003\000\000\000\000\000\000\000\001\000\000\000\000\000\000\000\002\000\000\000\000\000\000\000\001\000\000\000\000\000\000\000\002\000\000\000\000\000\000\000\003\000\000\000\000\000\000\000\002\000\000\000\000\000\000\000\001\000\000\000\000\000\000\000\003\000\000\000\000\000\000\000\002\000\000\000\000\000\000\000\002\000\000\000\000\000\000\000\003\000\000\000\000\000\000\000\003\000\000\000\000\000\000\000\002\000\000\000\000\000\000\000\002\000\000\000\000\000\000\000\003\000\000\000\000\000\000\000\002\000\000\000\000\000\000\000\002\000\000\000\000\000\000\000\003\000\000\000\000\000\000\000\003\000\000\000\000\000\000\000\002\000\000\000\000\000\000\000\002\000\000\000\000\000\000\000\002\000\000\000\000\000\000\000\001\000\000\000\000\000\000\000\003\000\000\000\000\000\000\000\001\000\000\000\000\000\000\000\003\000\000\000\000\000\000\000\002\000\000\000\000\000\000\000\002\000\000\000\000\000\000\000\003\000\000\000\000\000\000\000\003\000\000\000\000\000\000\000\003\000\000\000\000\000\000\000\001\000\000\000\000\000\000\000\003\000\000\000\000\000\000\000\003\000\000\000\000\000\000\000\003\000\000\000\000\000\000\000\001\000\000\000\000\000\000\000\003\000\000\000\000\000\000\000\002\000\000\000\000\000\000\000\001\000\000\000\000\000\000\000\001\000\000\000\000\000\000\000\003\000\000\000\000\000\000\000\001\000\000\000\000\000\000\000\001\000\000\000\000\000\000\000\003\000\000\000\000\000\000\000\003\000\000\000\000\000\000\000\003\000\000\000\000\000\000\000\002\000\000\000\000\000\000\000\003\000\000\000\000\000\000\000\002\000\000\000\000\000\000\000\001\000\000\000\000\000\000\000\001\000\000\000\000\000\000\000\001\000\000\000\000\000\000\000\003\000\000\000\000\000\000\000\003\000\000\000\000\000\000\000\003\000\000\000\000\000\000\000\003\000\000\000\000\000\000\000\001\000\000\000\000\000\000\000\003\000\000\000\000\000\000\000\002\000\000\000\000\000\000\000\001\000\000\000\000\000\000\000\003\000\000\000\000\000\000\000\003\000\000\000\000\000\000\000\003\000\000\000\000\000\000\000\003\000\000\000\000\000\000\000\002\000\000\000\000\000\000\000\002\000\000\000\000\000\000\000\003\000\000\000\000\000\000\000\003\000\000\000\000\000\000\000\001\000\000\000\000\000\000\000\003\000\000\000\000\000\000\000\003\000\000\000\000\000\000\000\003\000\000\000\000\000\000\000\003\000\000\000\000\000\000\000\003\000\000\000\000\000\000\000\003\000\000\000\000\000\000\000\003\000\000\000\000\000\000\000\003\000\000\000\000\000\000\000\002\000\000\000\000\000\000\000\003\000\000\000\000\000\000\000\003\000\000\000\000\000\000\000\003\000\000\000\000\000\000\000\003\000\000\000\000\000\000\000\002\000\000\000\000\000\000\000\001\000\000\000\000\000\000\000\003\000\000\000\000\000\000\000\003\000\000\000\000\000\000\000\001\000\000\000\000\000\000\000\003\000\000\000\000\000\000\000\003\000\000\000\000\000\000\000\003\000\000\000\000\000\000\000\001\000\000\000\000\000\000\000\003\000\000\000\000\000\000\000\003\000\000\000\000\000\000\000\001\000\000\000\000\000\000\000\003\000\000\000\000\000\000\000\003\000\000\000\000\000\000\000\002\000\000\000\000\000\000\000\001\000\000\000\000\000\000\000\002\000\000\000\000\000\000\000\003\000\000\000\000\000\000\000\003\000\000\000\000\000\000\000\003\000\000\000\000\000\000\000\002\000\000\000\000\000\000\000\003\000\000\000\000\000\000\000\002\000\000\000\000\000\000\000\003\000\000\000\000\000\000\000\003\000\000\000\000\000\000\000\001\000\000\000\000\000\000\000\003\000\000\000\000\000\000\000\002\000\000\000\000\000\000\000\003\000\000\000\000\000\000\000\002\000\000\000\000\000\000\000\002\000\000\000\000\000\000\000\003\000\000\000\000\000\000\000\001\000\000\000\000\000\000\000\003\000\000\000\000\000\000\000\003\000\000\000\000\000\000\000\003\000\000\000\000\000\000\000\003\000\000\000\000\000\000\000\003\000\000\000\000\000\000\000\002\000\000\000\000\000\000\000\003\000\000\000\000\000\000\000\003\000\000\000\000\000\000\000\003\000\000\000\000\000\000\000\002\000\000\000\000\000\000\000\002\000\000\000\000\000\000\000\002\000\000\000\000\000\000\000\002\000\000\000\000\000\000\000\003\000\000\000\000\000\000\000\003\000\000\000\000\000\000\000\003\000\000\000\000\000\000\000\002\000\000\000\000\000\000\000\003\000\000\000\000\000\000\000\002\000\000\000\000\000\000\000\001\000\000\000\000\000\000\000\003\000\000\000\000\000\000\000\001\000\000\000\000\000\000\000\003\000\000\000\000\000\000\000\003\000\000\000\000\000\000\000\001\000\000\000\000\000\000\000\003\000\000\000\000\000\000\000\001\000\000\000\000\000\000\000\003\000\000\000\000\000\000\000\001\000\000\000\000\000\000\000\001\000\000\000\000\000\000\000\003\000\000\000\000\000\000\000\001\000\000\000\000\000\000\000\003\000\000\000\000\000\000\000\001\000\000\000\000\000\000\000\001\000\000\000\000\000\000\000\001\000\000\000\000\000\000\000\003\000\000\000\000\000\000\000\001\000\000\000\000\000\000\000\003\000\000\000\000\000\000\000\002\000\000\000\000\000\000\000\003\000\000\000\000\000\000\000\002\000\000\000\000\000\000\000\001\000\000\000\000\000\000\000\001\000\000\000\000\000\000\000\003\000\000\000\000\000\000\000\003\000\000\000\000\000\000\000\003\000\000\000\000\000\000\000\003\000\000\000\000\000\000\000\003\000\000\000\000\000\000\000\003\000\000\000\000\000\000\000\003\000\000\000\000\000\000\000\001\000\000\000\000\000\000\000\002\000\000\000\000\000\000\000\003\000\000\000\000\000\000\000\002\000\000\000\000\000\000\000\001\000\000\000\000\000\000\000\002\000\000\000\000\000\000\000\003\000\000\000\000\000\000\000\003\000\000\000\000\000\000\000\003\000\000\000\000\000\000\000\003\000\000\000\000\000\000\000\003\000\000\000\000\000\000\000\003\000\000\000\000\000\000\000\003\000\000\000\000\000\000\000\003\000\000\000\000\000\000\000\003\000\000\000\000\000\000\000\003\000\000\000\000\000\000\000\001\000\000\000\000\000\000\000\001\000\000\000\000\000\000\000\003\000\000\000\000\000\000\000\003\000\000\000\000\000\000\000\003\000\000\000\000\000\000\000\003\000\000\000\000\000\000\000\002\000\000\000\000\000\000\000\003\000\000\000\000\000\000\000\002\000\000\000\000\000\000\000\002\000\000\000\000\000\000\000\003\000\000\000\000\000\000\000\002\000\000\000\000\000\000\000\003\000\000\000\000\000\000\000\003\000\000\000\000\000\000\000\002\000\000\000\000\000\000\000\003\000\000\000\000\000\000\000\002\000\000\000\000\000\000\000\003\000\000\000\000\000\000\000\003\000\000\000\000\000\000\000\003\000\000\000\000\000\000\000\001\000\000\000\000\000\000\000\003\000\000\000\000\000\000\000\003\000\000\000\000\000\000\000\003\000\000\000\000\000\000\000\002\000\000\000\000\000\000\000\003\000\000\000\000\000\000\000\003\000\000\000\000\000\000\000\002\000\000\000\000\000\000\000\002\000\000\000\000\000\000\000\003\000\000\000\000\000\000\000\003\000\000\000\000\000\000\000\002\000\000\000\000\000\000\000\001\000\000\000\000\000\000\000\001\000\000\000\000\000\000\000\003\000\000\000\000\000\000\000\001\000\000\000\000\000\000\000\003\000\000\000\000\000\000\000\001\000\000\000\000\000\000\000\001\000\000\000\000\000\000\000\001\000\000\000\000\000\000\000\003\000\000\000\000\000\000\000\002\000\000\000\000\000\000\000\001\000\000\000\000\000\000\000\003\000\000\000\000\000\000\000\001\000\000\000\000\000\000\000\003\000\000\000\000\000\000\000\003\000\000\000\000\000\000\000\001\000\000\000\000\000\000\000\001\000\000\000\000\000\000\000\002\000\000\000\000\000\000\000\001\000\000\000\000\000\000\000\003\000\000\000\000\000\000\000\001\000\000\000\000\000\000\000\001\000\000\000\000\000\000\000\001\000\000\000\000\000\000\000\001\000\000\000\000\000\000\000\003\000\000\000\000\000\000\000\003\000\000\000\000\000\000\000\003\000\000\000\000\000\000\000\001\000\000\000\000\000\000\000\003\000\000\000\000\000\000\000\003\000\000\000\000\000\000\000\002\000\000\000\000\000\000\000\002\000\000\000\000\000\000\000\002\000\000\000\000\000\000\000\003\000\000\000\000\000\000\000\001\000\000\000\000\000\000\000\003\000\000\000\000\000\000\000\002\000\000\000\000\000\000\000\003\000\000\000\000\000\000\000\001\000\000\000\000\000\000\000\003\000\000\000\000\000\000\000\003\000\000\000\000\000\000\000\002\000\000\000\000\000\000\000\003\000\000\000\000\000\000\000\003\000\000\000\000\000\000\000\002\000\000\000\000\000\000\000\003\000\000\000\000\000\000\000\003\000\000\000\000\000\000\000\002\000\000\000\000\000\000\000\003\000\000\000\000\000\000\000\003\000\000\000\000\000\000\000\003\000\000\000\000\000\000\000\001\000\000\000\000\000\000\000\003\000\000\000\000\000\000\000\003\000\000\000\000\000\000\000\001\000\000\000\000\000\000\000\003\000\000\000\000\000\000\000\003\000\000\000\000\000\000\000\002\000\000\000\000\000\000\000\003\000\000\000\000\000\000\000\003\000\000\000\000\000\000\000\003\000\000\000\000\000\000\000\002\000\000\000\000\000\000\000\003\000\000\000\000\000\000\000\001\000\000\000\000\000\000\000\003\000\000\000\000\000\000\000\002\000\000\000\000\000\000\000\003\000\000\000\000\000\000\000\001\000\000\000\000\000\000\000\002\000\000\000\000\000\000\000\003\000\000\000\000\000\000\000\003\000\000\000\000\000\000\000\001\000\000\000\000\000\000\000\002\000\000\000\000\000\000\000\003\000\000\000\000\000\000\000\003\000\000\000\000\000\000\000\003\000\000\000\000\000\000\000\002\000\000\000\000\000\000\000\002\000\000\000\000\000\000\000\001\000\000\000\000\000\000\000\003\000\000\000\000\000\000\000\003\000\000\000\000\000\000\000\003\000\000\000\000\000\000\000\003\000\000\000\000\000\000\000\002\000\000\000\000\000\000\000\003\000\000\000\000\000\000\000\001\000\000\000\000\000\000\000\002\000\000\000\000\000\000\000\001\000\000\000\000\000\000\000\001\000\000\000\000\000\000\000\001\000\000\000\000\000\000\000\002\000\000\000\000\000\000\000\003\000\000\000\000\000\000\000\001\000\000\000\000\000\000\000\003\000\000\000\000\000\000\000\003\000\000\000\000\000\000\000\003\000\000\000\000\000\000\000\003\000\000\000\000\000\000\000\003\000\000\000\000\000\000\000\003\000\000\000\000\000\000\000\002\000\000\000\000\000\000\000\003\000\000\000\000\000\000\000\001\000\000\000\000\000\000\000\001\000\000\000\000\000\000\000\001\000\000\000\000\000\000\000\002\000\000\000\000\000\000\000\003\000\000\000\000\000\000\000\001\000\000\000\000\000\000\000\003\000\000\000\000\000\000\000\003\000\000\000\000\000\000\000\001\000\000\000\000\000\000\000\003\000\000\000\000\000\000\000\003\000\000\000\000\000\000\000\003\000\000\000\000\000\000\000\001\000\000\000\000\000\000\000\003\000\000\000\000\000\000\000\001\000\000\000\000\000\000\000\001\000\000\000\000\000\000\000\003\000\000\000\000\000\000\000\003\000\000\000\000\000\000\000\001\000\000\000\000\000\000\000\003\000\000\000\000\000\000\000\003\000\000\000\000\000\000\000\003\000\000\000\000\000\000\000\001\000\000\000\000\000\000\000\002\000\000\000\000\000\000\000\003\000\000\000\000\000\000\000\003\000\000\000\000\000\000\000\002\000\000\000\000\000\000\000\001\000\000\000\000\000\000\000\003\000\000\000\000\000\000\000\003\000\000\000\000\000\000\000\002\000\000\000\000\000\000\000\003\000\000\000\000\000\000\000\002\000\000\000\000\000\000\000\003\000\000\000\000\000\000\000\003\000\000\000\000\000\000\000\002\000\000\000\000\000\000\000\003\000\000\000\000\000\000\000\003\000\000\000\000\000\000\000\001\000\000\000\000\000\000\000\002\000\000\000\000\000\000\000\003\000\000\000\000\000\000\000\001\000\000\000\000\000\000\000\003\000\000\000\000\000\000\000\003\000\000\000\000\000\000\000\001\000\000\000\000\000\000\000\003\000\000\000\000\000\000\000\003\000\000\000\000\000\000\000\001\000\000\000\000\000\000\000\001\000\000\000\000\000\000\000\003\000\000\000\000\000\000\000\003\000\000\000\000\000\000\000\002\000\000\000\000\000\000\000\001\000\000\000\000\000\000\000\003\000\000\000\000\000\000\000\003\000\000\000\000\000\000\000\003\000\000\000\000\000\000\000\001\000\000\000\000\000\000\000\002\000\000\000\000\000\000\000\002\000\000\000\000\000\000\000\001\000\000\000\000\000\000\000\003\000\000\000\000\000\000\000\001\000\000\000\000\000\000\000\001\000\000\000\000\000\000\000\003\000\000\000\000\000\000\000\002\000\000\000\000\000\000\000\003\000\000\000\000\000\000\000\001\000\000\000\000\000\000\000\003\000\000\000\000\000\000\000\001\000\000\000\000\000\000\000\001\000\000\000\000\000\000\000"
      }
    }
  }
}
node {
  name: "tensors/component_3"
  op: "Const"
  device: "/device:CPU:0"
  attr {
    key: "_output_shapes"
    value {
      list {
        shape {
          dim {
            size: 712
          }
        }
      }
    }
  }
  attr {
    key: "dtype"
    value {
      type: DT_STRING
    }
  }
  attr {
    key: "value"
    value {
      tensor {
        dtype: DT_STRING
        tensor_shape {
          dim {
            size: 712
          }
        }
        string_val: "male"
        string_val: "male"
        string_val: "male"
        string_val: "female"
        string_val: "female"
        string_val: "male"
        string_val: "male"
        string_val: "male"
        string_val: "male"
        string_val: "female"
        string_val: "male"
        string_val: "female"
        string_val: "male"
        string_val: "male"
        string_val: "male"
        string_val: "female"
        string_val: "male"
        string_val: "male"
        string_val: "male"
        string_val: "female"
        string_val: "male"
        string_val: "female"
        string_val: "female"
        string_val: "male"
        string_val: "male"
        string_val: "female"
        string_val: "male"
        string_val: "male"
        string_val: "female"
        string_val: "male"
        string_val: "male"
        string_val: "male"
        string_val: "male"
        string_val: "male"
        string_val: "male"
        string_val: "male"
        string_val: "male"
        string_val: "female"
        string_val: "female"
        string_val: "female"
        string_val: "male"
        string_val: "male"
        string_val: "female"
        string_val: "male"
        string_val: "female"
        string_val: "male"
        string_val: "male"
        string_val: "male"
        string_val: "male"
        string_val: "male"
        string_val: "female"
        string_val: "male"
        string_val: "male"
        string_val: "female"
        string_val: "male"
        string_val: "female"
        string_val: "male"
        string_val: "male"
        string_val: "male"
        string_val: "male"
        string_val: "female"
        string_val: "male"
        string_val: "female"
        string_val: "male"
        string_val: "male"
        string_val: "female"
        string_val: "male"
        string_val: "male"
        string_val: "female"
        string_val: "female"
        string_val: "male"
        string_val: "male"
        string_val: "male"
        string_val: "female"
        string_val: "male"
        string_val: "male"
        string_val: "female"
        string_val: "female"
        string_val: "male"
        string_val: "female"
        string_val: "female"
        string_val: "female"
        string_val: "female"
        string_val: "male"
        string_val: "male"
        string_val: "female"
        string_val: "male"
        string_val: "male"
        string_val: "male"
        string_val: "male"
        string_val: "male"
        string_val: "male"
        string_val: "male"
        string_val: "female"
        string_val: "female"
        string_val: "male"
        string_val: "female"
        string_val: "male"
        string_val: "male"
        string_val: "female"
        string_val: "female"
        string_val: "female"
        string_val: "male"
        string_val: "female"
        string_val: "male"
        string_val: "male"
        string_val: "male"
        string_val: "female"
        string_val: "male"
        string_val: "male"
        string_val: "male"
        string_val: "male"
        string_val: "male"
        string_val: "male"
        string_val: "male"
        string_val: "female"
        string_val: "male"
        string_val: "female"
        string_val: "male"
        string_val: "male"
        string_val: "female"
        string_val: "female"
        string_val: "female"
        string_val: "female"
        string_val: "male"
        string_val: "male"
        string_val: "female"
        string_val: "female"
        string_val: "male"
        string_val: "female"
        string_val: "male"
        string_val: "female"
        string_val: "female"
        string_val: "male"
        string_val: "male"
        string_val: "male"
        string_val: "male"
        string_val: "female"
        string_val: "male"
        string_val: "male"
        string_val: "female"
        string_val: "female"
        string_val: "female"
        string_val: "female"
        string_val: "male"
        string_val: "male"
        string_val: "male"
        string_val: "male"
        string_val: "male"
        string_val: "male"
        string_val: "male"
        string_val: "male"
        string_val: "male"
        string_val: "female"
        string_val: "male"
        string_val: "female"
        string_val: "female"
        string_val: "female"
        string_val: "female"
        string_val: "male"
        string_val: "male"
        string_val: "male"
        string_val: "female"
        string_val: "male"
        string_val: "female"
        string_val: "male"
        string_val: "female"
        string_val: "male"
        string_val: "male"
        string_val: "female"
        string_val: "male"
        string_val: "male"
        string_val: "male"
        string_val: "female"
        string_val: "male"
        string_val: "male"
        string_val: "male"
        string_val: "male"
        string_val: "male"
        string_val: "male"
        string_val: "female"
        string_val: "male"
        string_val: "male"
        string_val: "male"
        string_val: "male"
        string_val: "female"
        string_val: "male"
        string_val: "female"
        string_val: "female"
        string_val: "male"
        string_val: "female"
        string_val: "male"
        string_val: "female"
        string_val: "female"
        string_val: "female"
        string_val: "male"
        string_val: "male"
        string_val: "male"
        string_val: "male"
        string_val: "male"
        string_val: "male"
        string_val: "male"
        string_val: "female"
        string_val: "male"
        string_val: "male"
        string_val: "male"
        string_val: "female"
        string_val: "female"
        string_val: "female"
        string_val: "female"
        string_val: "male"
        string_val: "female"
        string_val: "male"
        string_val: "male"
        string_val: "male"
        string_val: "female"
        string_val: "male"
        string_val: "male"
        string_val: "female"
        string_val: "male"
        string_val: "male"
        string_val: "male"
        string_val: "male"
        string_val: "male"
        string_val: "female"
        string_val: "male"
        string_val: "male"
        string_val: "male"
        string_val: "female"
        string_val: "male"
        string_val: "male"
        string_val: "male"
        string_val: "male"
        string_val: "male"
        string_val: "male"
        string_val: "male"
        string_val: "male"
        string_val: "male"
        string_val: "female"
        string_val: "male"
        string_val: "male"
        string_val: "male"
        string_val: "male"
        string_val: "male"
        string_val: "male"
        string_val: "female"
        string_val: "male"
        string_val: "male"
        string_val: "male"
        string_val: "male"
        string_val: "male"
        string_val: "male"
        string_val: "male"
        string_val: "male"
        string_val: "male"
        string_val: "female"
        string_val: "male"
        string_val: "male"
        string_val: "male"
        string_val: "male"
        string_val: "male"
        string_val: "male"
        string_val: "male"
        string_val: "male"
        string_val: "male"
        string_val: "male"
        string_val: "male"
        string_val: "male"
        string_val: "male"
        string_val: "male"
        string_val: "male"
        string_val: "male"
        string_val: "male"
        string_val: "male"
        string_val: "male"
        string_val: "male"
        string_val: "female"
        string_val: "female"
        string_val: "female"
        string_val: "male"
        string_val: "male"
        string_val: "male"
        string_val: "female"
        string_val: "female"
        string_val: "male"
        string_val: "female"
        string_val: "female"
        string_val: "female"
        string_val: "male"
        string_val: "male"
        string_val: "female"
        string_val: "male"
        string_val: "male"
        string_val: "female"
        string_val: "female"
        string_val: "male"
        string_val: "female"
        string_val: "female"
        string_val: "male"
        string_val: "female"
        string_val: "male"
        string_val: "female"
        string_val: "male"
        string_val: "male"
        string_val: "female"
        string_val: "female"
        string_val: "female"
        string_val: "female"
        string_val: "male"
        string_val: "female"
        string_val: "female"
        string_val: "female"
        string_val: "male"
        string_val: "female"
        string_val: "female"
        string_val: "male"
        string_val: "male"
        string_val: "male"
        string_val: "male"
        string_val: "male"
        string_val: "male"
        string_val: "male"
        string_val: "male"
        string_val: "male"
        string_val: "female"
        string_val: "male"
        string_val: "male"
        string_val: "male"
        string_val: "female"
        string_val: "female"
        string_val: "male"
        string_val: "male"
        string_val: "male"
        string_val: "male"
        string_val: "female"
        string_val: "male"
        string_val: "male"
        string_val: "male"
        string_val: "male"
        string_val: "male"
        string_val: "male"
        string_val: "female"
        string_val: "male"
        string_val: "male"
        string_val: "male"
        string_val: "male"
        string_val: "female"
        string_val: "male"
        string_val: "male"
        string_val: "male"
        string_val: "male"
        string_val: "male"
        string_val: "male"
        string_val: "male"
        string_val: "male"
        string_val: "male"
        string_val: "female"
        string_val: "male"
        string_val: "female"
        string_val: "male"
        string_val: "female"
        string_val: "female"
        string_val: "male"
        string_val: "female"
        string_val: "female"
        string_val: "female"
        string_val: "female"
        string_val: "male"
        string_val: "female"
        string_val: "male"
        string_val: "male"
        string_val: "female"
        string_val: "male"
        string_val: "male"
        string_val: "male"
        string_val: "female"
        string_val: "male"
        string_val: "female"
        string_val: "male"
        string_val: "male"
        string_val: "female"
        string_val: "male"
        string_val: "male"
        string_val: "male"
        string_val: "male"
        string_val: "male"
        string_val: "female"
        string_val: "female"
        string_val: "male"
        string_val: "female"
        string_val: "male"
        string_val: "male"
        string_val: "female"
        string_val: "male"
        string_val: "male"
        string_val: "male"
        string_val: "male"
        string_val: "male"
        string_val: "male"
        string_val: "male"
        string_val: "female"
        string_val: "female"
        string_val: "male"
        string_val: "male"
        string_val: "female"
        string_val: "male"
        string_val: "male"
        string_val: "female"
        string_val: "male"
        string_val: "male"
        string_val: "female"
        string_val: "female"
        string_val: "male"
        string_val: "female"
        string_val: "female"
        string_val: "male"
        string_val: "male"
        string_val: "male"
        string_val: "male"
        string_val: "male"
        string_val: "male"
        string_val: "male"
        string_val: "male"
        string_val: "female"
        string_val: "male"
        string_val: "female"
        string_val: "male"
        string_val: "female"
        string_val: "female"
        string_val: "female"
        string_val: "male"
        string_val: "female"
        string_val: "male"
        string_val: "male"
        string_val: "female"
        string_val: "male"
        string_val: "female"
        string_val: "male"
        string_val: "female"
        string_val: "male"
        string_val: "male"
        string_val: "male"
        string_val: "male"
        string_val: "male"
        string_val: "male"
        string_val: "female"
        string_val: "male"
        string_val: "female"
        string_val: "male"
        string_val: "male"
        string_val: "male"
        string_val: "male"
        string_val: "female"
        string_val: "male"
        string_val: "female"
        string_val: "female"
        string_val: "male"
        string_val: "male"
        string_val: "female"
        string_val: "male"
        string_val: "male"
        string_val: "female"
        string_val: "female"
        string_val: "male"
        string_val: "male"
        string_val: "male"
        string_val: "male"
        string_val: "female"
        string_val: "female"
        string_val: "male"
        string_val: "male"
        string_val: "male"
        string_val: "female"
        string_val: "female"
        string_val: "male"
        string_val: "male"
        string_val: "female"
        string_val: "female"
        string_val: "male"
        string_val: "male"
        string_val: "male"
        string_val: "male"
        string_val: "male"
        string_val: "male"
        string_val: "male"
        string_val: "male"
        string_val: "male"
        string_val: "male"
        string_val: "male"
        string_val: "female"
        string_val: "male"
        string_val: "male"
        string_val: "male"
        string_val: "female"
        string_val: "male"
        string_val: "female"
        string_val: "female"
        string_val: "male"
        string_val: "female"
        string_val: "male"
        string_val: "male"
        string_val: "male"
        string_val: "male"
        string_val: "male"
        string_val: "male"
        string_val: "female"
        string_val: "female"
        string_val: "male"
        string_val: "male"
        string_val: "female"
        string_val: "female"
        string_val: "male"
        string_val: "male"
        string_val: "male"
        string_val: "female"
        string_val: "male"
        string_val: "female"
        string_val: "female"
        string_val: "male"
        string_val: "female"
        string_val: "male"
        string_val: "female"
        string_val: "male"
        string_val: "male"
        string_val: "male"
        string_val: "male"
        string_val: "male"
        string_val: "female"
        string_val: "male"
        string_val: "male"
        string_val: "male"
        string_val: "male"
        string_val: "male"
        string_val: "male"
        string_val: "female"
        string_val: "female"
        string_val: "male"
        string_val: "female"
        string_val: "male"
        string_val: "male"
        string_val: "female"
        string_val: "female"
        string_val: "male"
        string_val: "male"
        string_val: "female"
        string_val: "male"
        string_val: "female"
        string_val: "male"
        string_val: "male"
        string_val: "male"
        string_val: "male"
        string_val: "female"
        string_val: "female"
        string_val: "male"
        string_val: "female"
        string_val: "female"
        string_val: "male"
        string_val: "male"
        string_val: "female"
        string_val: "female"
        string_val: "female"
        string_val: "male"
        string_val: "female"
        string_val: "male"
        string_val: "female"
        string_val: "male"
        string_val: "male"
        string_val: "male"
        string_val: "female"
        string_val: "male"
        string_val: "male"
        string_val: "female"
        string_val: "female"
        string_val: "male"
        string_val: "female"
        string_val: "male"
        string_val: "male"
        string_val: "female"
        string_val: "male"
        string_val: "male"
        string_val: "male"
        string_val: "male"
        string_val: "male"
        string_val: "male"
        string_val: "male"
        string_val: "female"
        string_val: "female"
        string_val: "male"
        string_val: "female"
        string_val: "male"
        string_val: "male"
        string_val: "male"
        string_val: "female"
        string_val: "male"
        string_val: "female"
        string_val: "female"
        string_val: "male"
        string_val: "female"
        string_val: "female"
        string_val: "female"
        string_val: "female"
        string_val: "female"
        string_val: "male"
        string_val: "male"
        string_val: "male"
        string_val: "male"
        string_val: "female"
        string_val: "male"
        string_val: "male"
        string_val: "male"
        string_val: "male"
        string_val: "female"
        string_val: "male"
        string_val: "male"
        string_val: "female"
        string_val: "female"
        string_val: "male"
        string_val: "male"
        string_val: "male"
        string_val: "male"
        string_val: "male"
        string_val: "male"
        string_val: "male"
        string_val: "male"
        string_val: "female"
        string_val: "male"
        string_val: "male"
        string_val: "female"
        string_val: "female"
        string_val: "male"
        string_val: "male"
        string_val: "male"
        string_val: "male"
        string_val: "female"
        string_val: "male"
        string_val: "male"
        string_val: "male"
        string_val: "male"
        string_val: "female"
        string_val: "male"
        string_val: "male"
        string_val: "female"
        string_val: "male"
        string_val: "female"
        string_val: "female"
        string_val: "female"
        string_val: "male"
        string_val: "female"
        string_val: "female"
        string_val: "male"
        string_val: "female"
        string_val: "male"
        string_val: "male"
        string_val: "male"
        string_val: "male"
        string_val: "female"
        string_val: "male"
        string_val: "female"
        string_val: "male"
        string_val: "male"
        string_val: "female"
        string_val: "female"
        string_val: "female"
        string_val: "male"
        string_val: "female"
        string_val: "female"
        string_val: "female"
        string_val: "male"
        string_val: "male"
        string_val: "female"
        string_val: "male"
        string_val: "female"
        string_val: "male"
        string_val: "male"
        string_val: "male"
        string_val: "male"
        string_val: "female"
        string_val: "female"
        string_val: "female"
        string_val: "male"
        string_val: "female"
        string_val: "female"
        string_val: "male"
        string_val: "female"
        string_val: "male"
        string_val: "female"
        string_val: "female"
        string_val: "male"
        string_val: "male"
        string_val: "female"
        string_val: "male"
        string_val: "male"
        string_val: "male"
        string_val: "male"
        string_val: "female"
        string_val: "male"
        string_val: "male"
        string_val: "male"
        string_val: "male"
        string_val: "female"
        string_val: "male"
        string_val: "male"
        string_val: "male"
        string_val: "female"
        string_val: "male"
        string_val: "female"
        string_val: "male"
        string_val: "female"
        string_val: "female"
        string_val: "female"
        string_val: "male"
        string_val: "male"
      }
    }
  }
}
node {
  name: "tensors/component_4"
  op: "Const"
  device: "/device:CPU:0"
  attr {
    key: "_output_shapes"
    value {
      list {
        shape {
          dim {
            size: 712
          }
        }
      }
    }
  }
  attr {
    key: "dtype"
    value {
      type: DT_INT64
    }
  }
  attr {
    key: "value"
    value {
      tensor {
        dtype: DT_INT64
        tensor_shape {
          dim {
            size: 712
          }
        }
